// AUTO-GENERATED FILE -- DO NOT EDIT BY HAND.
// Generated by training/generate_model_header.py on 2026-07-16 13:11:37
// Source: training/model_output/heatshield_model.tflite (3912 bytes)
//
// Re-run the training pipeline and this script to regenerate this file
// after retraining. Any manual edits here will be overwritten.

#ifndef HEATSHIELD_MODEL_H
#define HEATSHIELD_MODEL_H

alignas(16) const unsigned char g_heatshield_model[] = {
    0x20, 0x00, 0x00, 0x00, 0x54, 0x46, 0x4c, 0x33, 0x00, 0x00, 0x00, 0x00,
    0x14, 0x00, 0x20, 0x00, 0x1c, 0x00, 0x18, 0x00, 0x14, 0x00, 0x10, 0x00,
    0x0c, 0x00, 0x00, 0x00, 0x08, 0x00, 0x04, 0x00, 0x14, 0x00, 0x00, 0x00,
    0x1c, 0x00, 0x00, 0x00, 0x94, 0x00, 0x00, 0x00, 0xec, 0x00, 0x00, 0x00,
    0xcc, 0x03, 0x00, 0x00, 0xdc, 0x03, 0x00, 0x00, 0xd8, 0x0e, 0x00, 0x00,
    0x03, 0x00, 0x00, 0x00, 0x01, 0x00, 0x00, 0x00, 0x10, 0x00, 0x00, 0x00,
    0x00, 0x00, 0x0a, 0x00, 0x10, 0x00, 0x0c, 0x00, 0x08, 0x00, 0x04, 0x00,
    0x0a, 0x00, 0x00, 0x00, 0x0c, 0x00, 0x00, 0x00, 0x1c, 0x00, 0x00, 0x00,
    0x3c, 0x00, 0x00, 0x00, 0x0f, 0x00, 0x00, 0x00, 0x73, 0x65, 0x72, 0x76,
    0x69, 0x6e, 0x67, 0x5f, 0x64, 0x65, 0x66, 0x61, 0x75, 0x6c, 0x74, 0x00,
    0x01, 0x00, 0x00, 0x00, 0x04, 0x00, 0x00, 0x00, 0x94, 0xff, 0xff, 0xff,
    0x0a, 0x00, 0x00, 0x00, 0x04, 0x00, 0x00, 0x00, 0x08, 0x00, 0x00, 0x00,
    0x6f, 0x75, 0x74, 0x70, 0x75, 0x74, 0x5f, 0x30, 0x00, 0x00, 0x00, 0x00,
    0x01, 0x00, 0x00, 0x00, 0x04, 0x00, 0x00, 0x00, 0x1a, 0xfc, 0xff, 0xff,
    0x04, 0x00, 0x00, 0x00, 0x08, 0x00, 0x00, 0x00, 0x66, 0x65, 0x61, 0x74,
    0x75, 0x72, 0x65, 0x73, 0x00, 0x00, 0x00, 0x00, 0x02, 0x00, 0x00, 0x00,
    0x34, 0x00, 0x00, 0x00, 0x04, 0x00, 0x00, 0x00, 0xdc, 0xff, 0xff, 0xff,
    0x0d, 0x00, 0x00, 0x00, 0x04, 0x00, 0x00, 0x00, 0x13, 0x00, 0x00, 0x00,
    0x43, 0x4f, 0x4e, 0x56, 0x45, 0x52, 0x53, 0x49, 0x4f, 0x4e, 0x5f, 0x4d,
    0x45, 0x54, 0x41, 0x44, 0x41, 0x54, 0x41, 0x00, 0x08, 0x00, 0x0c, 0x00,
    0x08, 0x00, 0x04, 0x00, 0x08, 0x00, 0x00, 0x00, 0x0c, 0x00, 0x00, 0x00,
    0x04, 0x00, 0x00, 0x00, 0x13, 0x00, 0x00, 0x00, 0x6d, 0x69, 0x6e, 0x5f,
    0x72, 0x75, 0x6e, 0x74, 0x69, 0x6d, 0x65, 0x5f, 0x76, 0x65, 0x72, 0x73,
    0x69, 0x6f, 0x6e, 0x00, 0x0e, 0x00, 0x00, 0x00, 0xdc, 0x02, 0x00, 0x00,
    0xd4, 0x02, 0x00, 0x00, 0xb4, 0x02, 0x00, 0x00, 0x74, 0x02, 0x00, 0x00,
    0x34, 0x02, 0x00, 0x00, 0x64, 0x01, 0x00, 0x00, 0x14, 0x01, 0x00, 0x00,
    0xb4, 0x00, 0x00, 0x00, 0xac, 0x00, 0x00, 0x00, 0xa4, 0x00, 0x00, 0x00,
    0x9c, 0x00, 0x00, 0x00, 0x94, 0x00, 0x00, 0x00, 0x74, 0x00, 0x00, 0x00,
    0x04, 0x00, 0x00, 0x00, 0xca, 0xfc, 0xff, 0xff, 0x04, 0x00, 0x00, 0x00,
    0x60, 0x00, 0x00, 0x00, 0x0c, 0x00, 0x00, 0x00, 0x08, 0x00, 0x0e, 0x00,
    0x08, 0x00, 0x04, 0x00, 0x08, 0x00, 0x00, 0x00, 0x10, 0x00, 0x00, 0x00,
    0x28, 0x00, 0x00, 0x00, 0x00, 0x00, 0x06, 0x00, 0x08, 0x00, 0x04, 0x00,
    0x06, 0x00, 0x00, 0x00, 0x04, 0x00, 0x00, 0x00, 0x01, 0x00, 0x00, 0x00,
    0xeb, 0x03, 0x00, 0x00, 0x0c, 0x00, 0x18, 0x00, 0x14, 0x00, 0x10, 0x00,
    0x0c, 0x00, 0x04, 0x00, 0x0c, 0x00, 0x00, 0x00, 0xe5, 0xec, 0x97, 0xd0,
    0x22, 0x9d, 0xcb, 0x6b, 0x02, 0x00, 0x00, 0x00, 0x02, 0x00, 0x00, 0x00,
    0x04, 0x00, 0x00, 0x00, 0x06, 0x00, 0x00, 0x00, 0x32, 0x2e, 0x32, 0x31,
    0x2e, 0x30, 0x00, 0x00, 0x36, 0xfd, 0xff, 0xff, 0x04, 0x00, 0x00, 0x00,
    0x10, 0x00, 0x00, 0x00, 0x31, 0x2e, 0x31, 0x34, 0x2e, 0x30, 0x00, 0x00,
    0x00, 0x00, 0x00, 0x00, 0x00, 0x00, 0x00, 0x00, 0x20, 0xfd, 0xff, 0xff,
    0x24, 0xfd, 0xff, 0xff, 0x28, 0xfd, 0xff, 0xff, 0x2c, 0xfd, 0xff, 0xff,
    0x62, 0xfd, 0xff, 0xff, 0x04, 0x00, 0x00, 0x00, 0x50, 0x00, 0x00, 0x00,
    0xe3, 0xc3, 0x7f, 0xaa, 0x37, 0x09, 0xca, 0x7f, 0x05, 0x85, 0x46, 0x21,
    0x81, 0x05, 0xde, 0x62, 0x3c, 0xcc, 0x81, 0x6d, 0x10, 0x29, 0x7f, 0xfa,
    0x66, 0xce, 0x9d, 0xc5, 0x69, 0x81, 0x47, 0x17, 0x7f, 0xda, 0x17, 0x5a,
    0x1c, 0x24, 0x85, 0x7f, 0xb7, 0xf6, 0x8a, 0x7f, 0x0f, 0x15, 0x31, 0xf3,
    0x81, 0xbf, 0x0c, 0x6d, 0xea, 0x4c, 0x81, 0xf9, 0x41, 0x7f, 0x91, 0xf2,
    0xeb, 0x30, 0x81, 0x4a, 0x84, 0xe8, 0x81, 0xed, 0x20, 0xa5, 0xd8, 0x5d,
    0x81, 0xda, 0x75, 0xab, 0xbe, 0x9c, 0x0f, 0x81, 0xbe, 0xfd, 0xff, 0xff,
    0x04, 0x00, 0x00, 0x00, 0x40, 0x00, 0x00, 0x00, 0xdc, 0x05, 0x00, 0x00,
    0x25, 0x25, 0x00, 0x00, 0x5d, 0x22, 0x00, 0x00, 0xcc, 0x04, 0x00, 0x00,
    0x2d, 0x04, 0x00, 0x00, 0x6d, 0xf1, 0xff, 0xff, 0x6d, 0x06, 0x00, 0x00,
    0xbb, 0xf6, 0xff, 0xff, 0x14, 0xed, 0xff, 0xff, 0xfd, 0x07, 0x00, 0x00,
    0x0b, 0x1d, 0x00, 0x00, 0xf6, 0x05, 0x00, 0x00, 0xab, 0xf7, 0xff, 0xff,
    0xf8, 0x1a, 0x00, 0x00, 0x2c, 0x32, 0x00, 0x00, 0x64, 0x02, 0x00, 0x00,
    0x0a, 0xfe, 0xff, 0xff, 0x04, 0x00, 0x00, 0x00, 0xc0, 0x00, 0x00, 0x00,
    0x34, 0x7e, 0x76, 0xe9, 0x18, 0xae, 0x0d, 0xb0, 0x8b, 0x03, 0x7f, 0x3c,
    0x9a, 0x59, 0x57, 0x1d, 0xb2, 0x1f, 0x4e, 0xff, 0xb5, 0x6e, 0xb0, 0xa4,
    0xc6, 0x15, 0x7f, 0xe6, 0x6f, 0x02, 0x1b, 0x17, 0x40, 0xdd, 0xd1, 0xf4,
    0x05, 0x6c, 0x1c, 0xcc, 0x96, 0xb0, 0x81, 0xc2, 0xb2, 0xb6, 0xf1, 0x52,
    0x1b, 0x1d, 0xfc, 0x4c, 0x57, 0x1a, 0x7f, 0xe8, 0xd0, 0xe6, 0xef, 0x42,
    0xf5, 0x1e, 0x21, 0x9d, 0xd5, 0x19, 0xea, 0x98, 0x8b, 0x08, 0x9f, 0xaa,
    0x65, 0x37, 0x9c, 0x9c, 0x83, 0xfa, 0xcb, 0x81, 0xda, 0x57, 0x7f, 0x2c,
    0xe9, 0x2c, 0x17, 0xe6, 0xd6, 0x0c, 0x5c, 0xd3, 0xdd, 0x4e, 0x1e, 0x26,
    0x36, 0xe1, 0x81, 0x0e, 0x3c, 0xd1, 0x61, 0xd0, 0xe5, 0xf1, 0xd4, 0x1c,
    0xfc, 0xe2, 0xaa, 0xe4, 0xaf, 0xdd, 0x7f, 0xfb, 0x06, 0x2d, 0x12, 0x10,
    0x24, 0xd8, 0x25, 0xc7, 0x54, 0x1c, 0xd1, 0x61, 0xa5, 0xa7, 0xd7, 0xdc,
    0xf2, 0xf3, 0x28, 0xf7, 0x08, 0xb5, 0x13, 0x30, 0x7f, 0x5b, 0x1f, 0x14,
    0xf4, 0xf2, 0x12, 0x46, 0xda, 0xfc, 0xb2, 0x04, 0xe8, 0xb4, 0x6e, 0xf6,
    0x16, 0x03, 0x2a, 0x7f, 0x4b, 0x7f, 0xda, 0x1b, 0x5b, 0xac, 0x60, 0x42,
    0xd7, 0x43, 0xfc, 0x2c, 0x22, 0x39, 0x18, 0xbc, 0x3d, 0x00, 0x04, 0xf8,
    0x7f, 0x47, 0x66, 0x11, 0x72, 0xeb, 0xb7, 0x33, 0x7e, 0x01, 0xc7, 0x47,
    0xd6, 0xfe, 0xff, 0xff, 0x04, 0x00, 0x00, 0x00, 0x30, 0x00, 0x00, 0x00,
    0xe7, 0x17, 0x00, 0x00, 0xa1, 0x09, 0x00, 0x00, 0x62, 0xfd, 0xff, 0xff,
    0xbf, 0x02, 0x00, 0x00, 0xca, 0xfe, 0xff, 0xff, 0x37, 0x0d, 0x00, 0x00,
    0xbe, 0xf0, 0xff, 0xff, 0xec, 0xf7, 0xff, 0xff, 0x6c, 0xf3, 0xff, 0xff,
    0xf9, 0x02, 0x00, 0x00, 0x39, 0x0d, 0x00, 0x00, 0x61, 0xf1, 0xff, 0xff,
    0x12, 0xff, 0xff, 0xff, 0x04, 0x00, 0x00, 0x00, 0x30, 0x00, 0x00, 0x00,
    0xc9, 0xee, 0xdb, 0xb2, 0x3b, 0xf7, 0x28, 0x67, 0x7d, 0x47, 0x81, 0x5b,
    0x12, 0xf7, 0x4c, 0x81, 0x17, 0x51, 0x27, 0x19, 0xbf, 0x3e, 0x0e, 0x94,
    0x2f, 0x81, 0x0d, 0x19, 0x53, 0x1b, 0x93, 0x88, 0x42, 0xa1, 0x4f, 0xee,
    0xcb, 0xa3, 0xeb, 0x21, 0x2e, 0x81, 0x58, 0xdf, 0xed, 0xc6, 0x54, 0x41,
    0x4e, 0xff, 0xff, 0xff, 0x04, 0x00, 0x00, 0x00, 0x10, 0x00, 0x00, 0x00,
    0xf1, 0xfa, 0xff, 0xff, 0x66, 0x04, 0x00, 0x00, 0x01, 0x06, 0x00, 0x00,
    0x69, 0xfb, 0xff, 0xff, 0x38, 0xff, 0xff, 0xff, 0x3c, 0xff, 0xff, 0xff,
    0x0f, 0x00, 0x00, 0x00, 0x4d, 0x4c, 0x49, 0x52, 0x20, 0x43, 0x6f, 0x6e,
    0x76, 0x65, 0x72, 0x74, 0x65, 0x64, 0x2e, 0x00, 0x01, 0x00, 0x00, 0x00,
    0x14, 0x00, 0x00, 0x00, 0x00, 0x00, 0x0e, 0x00, 0x18, 0x00, 0x14, 0x00,
    0x10, 0x00, 0x0c, 0x00, 0x08, 0x00, 0x04, 0x00, 0x0e, 0x00, 0x00, 0x00,
    0x14, 0x00, 0x00, 0x00, 0x1c, 0x00, 0x00, 0x00, 0x38, 0x01, 0x00, 0x00,
    0x3c, 0x01, 0x00, 0x00, 0x40, 0x01, 0x00, 0x00, 0x04, 0x00, 0x00, 0x00,
    0x6d, 0x61, 0x69, 0x6e, 0x00, 0x00, 0x00, 0x00, 0x04, 0x00, 0x00, 0x00,
    0xe0, 0x00, 0x00, 0x00, 0x98, 0x00, 0x00, 0x00, 0x50, 0x00, 0x00, 0x00,
    0x14, 0x00, 0x00, 0x00, 0x00, 0x00, 0x0e, 0x00, 0x1a, 0x00, 0x14, 0x00,
    0x10, 0x00, 0x0c, 0x00, 0x0b, 0x00, 0x04, 0x00, 0x0e, 0x00, 0x00, 0x00,
    0x1c, 0x00, 0x00, 0x00, 0x00, 0x00, 0x00, 0x09, 0x1c, 0x00, 0x00, 0x00,
    0x20, 0x00, 0x00, 0x00, 0x01, 0x00, 0x00, 0x00, 0x00, 0x00, 0x06, 0x00,
    0x08, 0x00, 0x04, 0x00, 0x06, 0x00, 0x00, 0x00, 0x00, 0x00, 0x80, 0x3f,
    0x01, 0x00, 0x00, 0x00, 0x0a, 0x00, 0x00, 0x00, 0x01, 0x00, 0x00, 0x00,
    0x09, 0x00, 0x00, 0x00, 0xca, 0xff, 0xff, 0xff, 0x14, 0x00, 0x00, 0x00,
    0x00, 0x00, 0x00, 0x08, 0x10, 0x00, 0x00, 0x00, 0x14, 0x00, 0x00, 0x00,
    0x04, 0x00, 0x04, 0x00, 0x04, 0x00, 0x00, 0x00, 0x01, 0x00, 0x00, 0x00,
    0x09, 0x00, 0x00, 0x00, 0x03, 0x00, 0x00, 0x00, 0x08, 0x00, 0x00, 0x00,
    0x02, 0x00, 0x00, 0x00, 0x01, 0x00, 0x00, 0x00, 0x00, 0x00, 0x0e, 0x00,
    0x14, 0x00, 0x00, 0x00, 0x10, 0x00, 0x0c, 0x00, 0x0b, 0x00, 0x04, 0x00,
    0x0e, 0x00, 0x00, 0x00, 0x10, 0x00, 0x00, 0x00, 0x00, 0x00, 0x00, 0x08,
    0x10, 0x00, 0x00, 0x00, 0x14, 0x00, 0x00, 0x00, 0xba, 0xff, 0xff, 0xff,
    0x00, 0x00, 0x00, 0x01, 0x01, 0x00, 0x00, 0x00, 0x08, 0x00, 0x00, 0x00,
    0x03, 0x00, 0x00, 0x00, 0x07, 0x00, 0x00, 0x00, 0x04, 0x00, 0x00, 0x00,
    0x03, 0x00, 0x00, 0x00, 0x00, 0x00, 0x0e, 0x00, 0x16, 0x00, 0x00, 0x00,
    0x10, 0x00, 0x0c, 0x00, 0x0b, 0x00, 0x04, 0x00, 0x0e, 0x00, 0x00, 0x00,
    0x18, 0x00, 0x00, 0x00, 0x00, 0x00, 0x00, 0x08, 0x18, 0x00, 0x00, 0x00,
    0x1c, 0x00, 0x00, 0x00, 0x00, 0x00, 0x06, 0x00, 0x08, 0x00, 0x07, 0x00,
    0x06, 0x00, 0x00, 0x00, 0x00, 0x00, 0x00, 0x01, 0x01, 0x00, 0x00, 0x00,
    0x07, 0x00, 0x00, 0x00, 0x03, 0x00, 0x00, 0x00, 0x00, 0x00, 0x00, 0x00,
    0x06, 0x00, 0x00, 0x00, 0x05, 0x00, 0x00, 0x00, 0x01, 0x00, 0x00, 0x00,
    0x0a, 0x00, 0x00, 0x00, 0x01, 0x00, 0x00, 0x00, 0x00, 0x00, 0x00, 0x00,
    0x0b, 0x00, 0x00, 0x00, 0x08, 0x09, 0x00, 0x00, 0x50, 0x08, 0x00, 0x00,
    0x9c, 0x07, 0x00, 0x00, 0x78, 0x06, 0x00, 0x00, 0x74, 0x05, 0x00, 0x00,
    0x20, 0x04, 0x00, 0x00, 0xec, 0x02, 0x00, 0x00, 0x10, 0x02, 0x00, 0x00,
    0x34, 0x01, 0x00, 0x00, 0x80, 0x00, 0x00, 0x00, 0x04, 0x00, 0x00, 0x00,
    0x3a, 0xf7, 0xff, 0xff, 0x00, 0x00, 0x00, 0x01, 0x18, 0x00, 0x00, 0x00,
    0x20, 0x00, 0x00, 0x00, 0x3c, 0x00, 0x00, 0x00, 0x0b, 0x00, 0x00, 0x00,
    0x00, 0x00, 0x00, 0x09, 0x50, 0x00, 0x00, 0x00, 0x02, 0x00, 0x00, 0x00,
    0xff, 0xff, 0xff, 0xff, 0x04, 0x00, 0x00, 0x00, 0x24, 0xf7, 0xff, 0xff,
    0x08, 0x00, 0x00, 0x00, 0x10, 0x00, 0x00, 0x00, 0x01, 0x00, 0x00, 0x00,
    0x80, 0xff, 0xff, 0xff, 0xff, 0xff, 0xff, 0xff, 0x01, 0x00, 0x00, 0x00,
    0x00, 0x00, 0x80, 0x3b, 0x1b, 0x00, 0x00, 0x00, 0x53, 0x74, 0x61, 0x74,
    0x65, 0x66, 0x75, 0x6c, 0x50, 0x61, 0x72, 0x74, 0x69, 0x74, 0x69, 0x6f,
    0x6e, 0x65, 0x64, 0x43, 0x61, 0x6c, 0x6c, 0x5f, 0x31, 0x3a, 0x30, 0x00,
    0x02, 0x00, 0x00, 0x00, 0x01, 0x00, 0x00, 0x00, 0x04, 0x00, 0x00, 0x00,
    0xb2, 0xf7, 0xff, 0xff, 0x00, 0x00, 0x00, 0x01, 0x18, 0x00, 0x00, 0x00,
    0x20, 0x00, 0x00, 0x00, 0x3c, 0x00, 0x00, 0x00, 0x0a, 0x00, 0x00, 0x00,
    0x00, 0x00, 0x00, 0x09, 0x88, 0x00, 0x00, 0x00, 0x02, 0x00, 0x00, 0x00,
    0xff, 0xff, 0xff, 0xff, 0x04, 0x00, 0x00, 0x00, 0x9c, 0xf7, 0xff, 0xff,
    0x08, 0x00, 0x00, 0x00, 0x10, 0x00, 0x00, 0x00, 0x01, 0x00, 0x00, 0x00,
    0xfd, 0xff, 0xff, 0xff, 0xff, 0xff, 0xff, 0xff, 0x01, 0x00, 0x00, 0x00,
    0xb6, 0xa4, 0xbd, 0x3d, 0x50, 0x00, 0x00, 0x00, 0x68, 0x65, 0x61, 0x74,
    0x73, 0x68, 0x69, 0x65, 0x6c, 0x64, 0x5f, 0x63, 0x6c, 0x61, 0x73, 0x73,
    0x69, 0x66, 0x69, 0x65, 0x72, 0x5f, 0x31, 0x2f, 0x6f, 0x75, 0x74, 0x70,
    0x75, 0x74, 0x5f, 0x31, 0x2f, 0x4d, 0x61, 0x74, 0x4d, 0x75, 0x6c, 0x3b,
    0x68, 0x65, 0x61, 0x74, 0x73, 0x68, 0x69, 0x65, 0x6c, 0x64, 0x5f, 0x63,
    0x6c, 0x61, 0x73, 0x73, 0x69, 0x66, 0x69, 0x65, 0x72, 0x5f, 0x31, 0x2f,
    0x6f, 0x75, 0x74, 0x70, 0x75, 0x74, 0x5f, 0x31, 0x2f, 0x42, 0x69, 0x61,
    0x73, 0x41, 0x64, 0x64, 0x00, 0x00, 0x00, 0x00, 0x02, 0x00, 0x00, 0x00,
    0x01, 0x00, 0x00, 0x00, 0x04, 0x00, 0x00, 0x00, 0x62, 0xf8, 0xff, 0xff,
    0x00, 0x00, 0x00, 0x01, 0x18, 0x00, 0x00, 0x00, 0x20, 0x00, 0x00, 0x00,
    0x3c, 0x00, 0x00, 0x00, 0x09, 0x00, 0x00, 0x00, 0x00, 0x00, 0x00, 0x09,
    0xb0, 0x00, 0x00, 0x00, 0x02, 0x00, 0x00, 0x00, 0xff, 0xff, 0xff, 0xff,
    0x0c, 0x00, 0x00, 0x00, 0x4c, 0xf8, 0xff, 0xff, 0x08, 0x00, 0x00, 0x00,
    0x10, 0x00, 0x00, 0x00, 0x01, 0x00, 0x00, 0x00, 0x80, 0xff, 0xff, 0xff,
    0xff, 0xff, 0xff, 0xff, 0x01, 0x00, 0x00, 0x00, 0x75, 0x52, 0x0b, 0x3d,
    0x79, 0x00, 0x00, 0x00, 0x68, 0x65, 0x61, 0x74, 0x73, 0x68, 0x69, 0x65,
    0x6c, 0x64, 0x5f, 0x63, 0x6c, 0x61, 0x73, 0x73, 0x69, 0x66, 0x69, 0x65,
    0x72, 0x5f, 0x31, 0x2f, 0x64, 0x65, 0x6e, 0x73, 0x65, 0x5f, 0x32, 0x5f,
    0x31, 0x2f, 0x4d, 0x61, 0x74, 0x4d, 0x75, 0x6c, 0x3b, 0x68, 0x65, 0x61,
    0x74, 0x73, 0x68, 0x69, 0x65, 0x6c, 0x64, 0x5f, 0x63, 0x6c, 0x61, 0x73,
    0x73, 0x69, 0x66, 0x69, 0x65, 0x72, 0x5f, 0x31, 0x2f, 0x64, 0x65, 0x6e,
    0x73, 0x65, 0x5f, 0x32, 0x5f, 0x31, 0x2f, 0x52, 0x65, 0x6c, 0x75, 0x3b,
    0x68, 0x65, 0x61, 0x74, 0x73, 0x68, 0x69, 0x65, 0x6c, 0x64, 0x5f, 0x63,
    0x6c, 0x61, 0x73, 0x73, 0x69, 0x66, 0x69, 0x65, 0x72, 0x5f, 0x31, 0x2f,
    0x64, 0x65, 0x6e, 0x73, 0x65, 0x5f, 0x32, 0x5f, 0x31, 0x2f, 0x42, 0x69,
    0x61, 0x73, 0x41, 0x64, 0x64, 0x00, 0x00, 0x00, 0x02, 0x00, 0x00, 0x00,
    0x01, 0x00, 0x00, 0x00, 0x0c, 0x00, 0x00, 0x00, 0x3a, 0xf9, 0xff, 0xff,
    0x00, 0x00, 0x00, 0x01, 0x18, 0x00, 0x00, 0x00, 0x20, 0x00, 0x00, 0x00,
    0x3c, 0x00, 0x00, 0x00, 0x08, 0x00, 0x00, 0x00, 0x00, 0x00, 0x00, 0x09,
    0xb0, 0x00, 0x00, 0x00, 0x02, 0x00, 0x00, 0x00, 0xff, 0xff, 0xff, 0xff,
    0x10, 0x00, 0x00, 0x00, 0x24, 0xf9, 0xff, 0xff, 0x08, 0x00, 0x00, 0x00,
    0x10, 0x00, 0x00, 0x00, 0x01, 0x00, 0x00, 0x00, 0x80, 0xff, 0xff, 0xff,
    0xff, 0xff, 0xff, 0xff, 0x01, 0x00, 0x00, 0x00, 0x94, 0xc3, 0x84, 0x3c,
    0x79, 0x00, 0x00, 0x00, 0x68, 0x65, 0x61, 0x74, 0x73, 0x68, 0x69, 0x65,
    0x6c, 0x64, 0x5f, 0x63, 0x6c, 0x61, 0x73, 0x73, 0x69, 0x66, 0x69, 0x65,
    0x72, 0x5f, 0x31, 0x2f, 0x64, 0x65, 0x6e, 0x73, 0x65, 0x5f, 0x31, 0x5f,
    0x31, 0x2f, 0x4d, 0x61, 0x74, 0x4d, 0x75, 0x6c, 0x3b, 0x68, 0x65, 0x61,
    0x74, 0x73, 0x68, 0x69, 0x65, 0x6c, 0x64, 0x5f, 0x63, 0x6c, 0x61, 0x73,
    0x73, 0x69, 0x66, 0x69, 0x65, 0x72, 0x5f, 0x31, 0x2f, 0x64, 0x65, 0x6e,
    0x73, 0x65, 0x5f, 0x31, 0x5f, 0x31, 0x2f, 0x52, 0x65, 0x6c, 0x75, 0x3b,
    0x68, 0x65, 0x61, 0x74, 0x73, 0x68, 0x69, 0x65, 0x6c, 0x64, 0x5f, 0x63,
    0x6c, 0x61, 0x73, 0x73, 0x69, 0x66, 0x69, 0x65, 0x72, 0x5f, 0x31, 0x2f,
    0x64, 0x65, 0x6e, 0x73, 0x65, 0x5f, 0x31, 0x5f, 0x31, 0x2f, 0x42, 0x69,
    0x61, 0x73, 0x41, 0x64, 0x64, 0x00, 0x00, 0x00, 0x02, 0x00, 0x00, 0x00,
    0x01, 0x00, 0x00, 0x00, 0x10, 0x00, 0x00, 0x00, 0xc6, 0xfa, 0xff, 0xff,
    0x00, 0x00, 0x00, 0x01, 0x14, 0x00, 0x00, 0x00, 0xe8, 0x00, 0x00, 0x00,
    0x07, 0x00, 0x00, 0x00, 0x00, 0x00, 0x00, 0x09, 0x0c, 0x01, 0x00, 0x00,
    0xec, 0xf9, 0xff, 0xff, 0x08, 0x00, 0x00, 0x00, 0x8c, 0x00, 0x00, 0x00,
    0x10, 0x00, 0x00, 0x00, 0x00, 0x00, 0x00, 0x00, 0x00, 0x00, 0x00, 0x00,
    0x00, 0x00, 0x00, 0x00, 0x00, 0x00, 0x00, 0x00, 0x00, 0x00, 0x00, 0x00,
    0x00, 0x00, 0x00, 0x00, 0x00, 0x00, 0x00, 0x00, 0x00, 0x00, 0x00, 0x00,
    0x00, 0x00, 0x00, 0x00, 0x00, 0x00, 0x00, 0x00, 0x00, 0x00, 0x00, 0x00,
    0x00, 0x00, 0x00, 0x00, 0x00, 0x00, 0x00, 0x00, 0x00, 0x00, 0x00, 0x00,
    0x00, 0x00, 0x00, 0x00, 0x00, 0x00, 0x00, 0x00, 0x00, 0x00, 0x00, 0x00,
    0x00, 0x00, 0x00, 0x00, 0x00, 0x00, 0x00, 0x00, 0x00, 0x00, 0x00, 0x00,
    0x00, 0x00, 0x00, 0x00, 0x00, 0x00, 0x00, 0x00, 0x00, 0x00, 0x00, 0x00,
    0x00, 0x00, 0x00, 0x00, 0x00, 0x00, 0x00, 0x00, 0x00, 0x00, 0x00, 0x00,
    0x00, 0x00, 0x00, 0x00, 0x00, 0x00, 0x00, 0x00, 0x00, 0x00, 0x00, 0x00,
    0x00, 0x00, 0x00, 0x00, 0x00, 0x00, 0x00, 0x00, 0x00, 0x00, 0x00, 0x00,
    0x00, 0x00, 0x00, 0x00, 0x10, 0x00, 0x00, 0x00, 0x63, 0x36, 0xb7, 0x3b,
    0x05, 0xbb, 0x81, 0x3b, 0x85, 0x17, 0x78, 0x3b, 0x47, 0x76, 0x80, 0x3b,
    0x23, 0xb6, 0xd5, 0x3b, 0xb0, 0x32, 0x37, 0x3b, 0xb8, 0xb5, 0x05, 0x3c,
    0xa5, 0x84, 0x86, 0x3b, 0x38, 0x37, 0x4a, 0x3b, 0xed, 0x4e, 0xa7, 0x3b,
    0x4e, 0x04, 0x6a, 0x3b, 0xe8, 0x94, 0x95, 0x3b, 0xe9, 0x21, 0xb0, 0x3b,
    0x9b, 0x46, 0x5f, 0x3b, 0x41, 0xad, 0xb9, 0x3a, 0xa6, 0xb3, 0xaf, 0x3b,
    0x28, 0x00, 0x00, 0x00, 0x68, 0x65, 0x61, 0x74, 0x73, 0x68, 0x69, 0x65,
    0x6c, 0x64, 0x5f, 0x63, 0x6c, 0x61, 0x73, 0x73, 0x69, 0x66, 0x69, 0x65,
    0x72, 0x5f, 0x31, 0x2f, 0x64, 0x65, 0x6e, 0x73, 0x65, 0x5f, 0x31, 0x5f,
    0x31, 0x2f, 0x4d, 0x61, 0x74, 0x4d, 0x75, 0x6c, 0x00, 0x00, 0x00, 0x00,
    0x02, 0x00, 0x00, 0x00, 0x10, 0x00, 0x00, 0x00, 0x05, 0x00, 0x00, 0x00,
    0xf6, 0xfb, 0xff, 0xff, 0x00, 0x00, 0x00, 0x01, 0x14, 0x00, 0x00, 0x00,
    0xe4, 0x00, 0x00, 0x00, 0x06, 0x00, 0x00, 0x00, 0x00, 0x00, 0x00, 0x02,
    0x30, 0x01, 0x00, 0x00, 0x1c, 0xfb, 0xff, 0xff, 0x08, 0x00, 0x00, 0x00,
    0x88, 0x00, 0x00, 0x00, 0x10, 0x00, 0x00, 0x00, 0x00, 0x00, 0x00, 0x00,
    0x00, 0x00, 0x00, 0x00, 0x00, 0x00, 0x00, 0x00, 0x00, 0x00, 0x00, 0x00,
    0x00, 0x00, 0x00, 0x00, 0x00, 0x00, 0x00, 0x00, 0x00, 0x00, 0x00, 0x00,
    0x00, 0x00, 0x00, 0x00, 0x00, 0x00, 0x00, 0x00, 0x00, 0x00, 0x00, 0x00,
    0x00, 0x00, 0x00, 0x00, 0x00, 0x00, 0x00, 0x00, 0x00, 0x00, 0x00, 0x00,
    0x00, 0x00, 0x00, 0x00, 0x00, 0x00, 0x00, 0x00, 0x00, 0x00, 0x00, 0x00,
    0x00, 0x00, 0x00, 0x00, 0x00, 0x00, 0x00, 0x00, 0x00, 0x00, 0x00, 0x00,
    0x00, 0x00, 0x00, 0x00, 0x00, 0x00, 0x00, 0x00, 0x00, 0x00, 0x00, 0x00,
    0x00, 0x00, 0x00, 0x00, 0x00, 0x00, 0x00, 0x00, 0x00, 0x00, 0x00, 0x00,
    0x00, 0x00, 0x00, 0x00, 0x00, 0x00, 0x00, 0x00, 0x00, 0x00, 0x00, 0x00,
    0x00, 0x00, 0x00, 0x00, 0x00, 0x00, 0x00, 0x00, 0x00, 0x00, 0x00, 0x00,
    0x00, 0x00, 0x00, 0x00, 0x10, 0x00, 0x00, 0x00, 0x56, 0x37, 0xec, 0x38,
    0x08, 0x43, 0xa7, 0x38, 0xc3, 0xee, 0x9f, 0x38, 0x57, 0xa0, 0xa5, 0x38,
    0xf1, 0xc4, 0x09, 0x39, 0x91, 0x32, 0x6c, 0x38, 0x71, 0x64, 0x2c, 0x39,
    0x3b, 0x6f, 0xad, 0x38, 0xc9, 0x5b, 0x82, 0x38, 0xfe, 0xb5, 0xd7, 0x38,
    0xf2, 0xdb, 0x96, 0x38, 0x1e, 0xdb, 0xc0, 0x38, 0x81, 0x16, 0xe3, 0x38,
    0x59, 0xef, 0x8f, 0x38, 0xb7, 0x64, 0xef, 0x37, 0x58, 0x88, 0xe2, 0x38,
    0x50, 0x00, 0x00, 0x00, 0x68, 0x65, 0x61, 0x74, 0x73, 0x68, 0x69, 0x65,
    0x6c, 0x64, 0x5f, 0x63, 0x6c, 0x61, 0x73, 0x73, 0x69, 0x66, 0x69, 0x65,
    0x72, 0x5f, 0x31, 0x2f, 0x64, 0x65, 0x6e, 0x73, 0x65, 0x5f, 0x31, 0x5f,
    0x31, 0x2f, 0x52, 0x65, 0x6c, 0x75, 0x3b, 0x68, 0x65, 0x61, 0x74, 0x73,
    0x68, 0x69, 0x65, 0x6c, 0x64, 0x5f, 0x63, 0x6c, 0x61, 0x73, 0x73, 0x69,
    0x66, 0x69, 0x65, 0x72, 0x5f, 0x31, 0x2f, 0x64, 0x65, 0x6e, 0x73, 0x65,
    0x5f, 0x31, 0x5f, 0x31, 0x2f, 0x42, 0x69, 0x61, 0x73, 0x41, 0x64, 0x64,
    0x00, 0x00, 0x00, 0x00, 0x01, 0x00, 0x00, 0x00, 0x10, 0x00, 0x00, 0x00,
    0x46, 0xfd, 0xff, 0xff, 0x00, 0x00, 0x00, 0x01, 0x14, 0x00, 0x00, 0x00,
    0xb8, 0x00, 0x00, 0x00, 0x05, 0x00, 0x00, 0x00, 0x00, 0x00, 0x00, 0x09,
    0xdc, 0x00, 0x00, 0x00, 0x6c, 0xfc, 0xff, 0xff, 0x08, 0x00, 0x00, 0x00,
    0x6c, 0x00, 0x00, 0x00, 0x0c, 0x00, 0x00, 0x00, 0x00, 0x00, 0x00, 0x00,
    0x00, 0x00, 0x00, 0x00, 0x00, 0x00, 0x00, 0x00, 0x00, 0x00, 0x00, 0x00,
    0x00, 0x00, 0x00, 0x00, 0x00, 0x00, 0x00, 0x00, 0x00, 0x00, 0x00, 0x00,
    0x00, 0x00, 0x00, 0x00, 0x00, 0x00, 0x00, 0x00, 0x00, 0x00, 0x00, 0x00,
    0x00, 0x00, 0x00, 0x00, 0x00, 0x00, 0x00, 0x00, 0x00, 0x00, 0x00, 0x00,
    0x00, 0x00, 0x00, 0x00, 0x00, 0x00, 0x00, 0x00, 0x00, 0x00, 0x00, 0x00,
    0x00, 0x00, 0x00, 0x00, 0x00, 0x00, 0x00, 0x00, 0x00, 0x00, 0x00, 0x00,
    0x00, 0x00, 0x00, 0x00, 0x00, 0x00, 0x00, 0x00, 0x00, 0x00, 0x00, 0x00,
    0x00, 0x00, 0x00, 0x00, 0x00, 0x00, 0x00, 0x00, 0x00, 0x00, 0x00, 0x00,
    0x0c, 0x00, 0x00, 0x00, 0x08, 0x1e, 0xaa, 0x3b, 0xe4, 0xeb, 0xad, 0x3b,
    0x0c, 0xd5, 0x6c, 0x3b, 0x70, 0x5b, 0xb3, 0x3b, 0xc8, 0xfb, 0x53, 0x3b,
    0x0f, 0x0e, 0x08, 0x3c, 0x87, 0x0d, 0xc2, 0x3b, 0xf5, 0x19, 0xbb, 0x3b,
    0xc8, 0xb5, 0xb6, 0x3b, 0x8c, 0x50, 0xb8, 0x3b, 0x93, 0x7d, 0xbb, 0x3b,
    0xcb, 0xe2, 0xb3, 0x3b, 0x28, 0x00, 0x00, 0x00, 0x68, 0x65, 0x61, 0x74,
    0x73, 0x68, 0x69, 0x65, 0x6c, 0x64, 0x5f, 0x63, 0x6c, 0x61, 0x73, 0x73,
    0x69, 0x66, 0x69, 0x65, 0x72, 0x5f, 0x31, 0x2f, 0x64, 0x65, 0x6e, 0x73,
    0x65, 0x5f, 0x32, 0x5f, 0x31, 0x2f, 0x4d, 0x61, 0x74, 0x4d, 0x75, 0x6c,
    0x00, 0x00, 0x00, 0x00, 0x02, 0x00, 0x00, 0x00, 0x0c, 0x00, 0x00, 0x00,
    0x10, 0x00, 0x00, 0x00, 0x46, 0xfe, 0xff, 0xff, 0x00, 0x00, 0x00, 0x01,
    0x14, 0x00, 0x00, 0x00, 0xb4, 0x00, 0x00, 0x00, 0x04, 0x00, 0x00, 0x00,
    0x00, 0x00, 0x00, 0x02, 0x00, 0x01, 0x00, 0x00, 0x6c, 0xfd, 0xff, 0xff,
    0x08, 0x00, 0x00, 0x00, 0x68, 0x00, 0x00, 0x00, 0x0c, 0x00, 0x00, 0x00,
    0x00, 0x00, 0x00, 0x00, 0x00, 0x00, 0x00, 0x00, 0x00, 0x00, 0x00, 0x00,
    0x00, 0x00, 0x00, 0x00, 0x00, 0x00, 0x00, 0x00, 0x00, 0x00, 0x00, 0x00,
    0x00, 0x00, 0x00, 0x00, 0x00, 0x00, 0x00, 0x00, 0x00, 0x00, 0x00, 0x00,
    0x00, 0x00, 0x00, 0x00, 0x00, 0x00, 0x00, 0x00, 0x00, 0x00, 0x00, 0x00,
    0x00, 0x00, 0x00, 0x00, 0x00, 0x00, 0x00, 0x00, 0x00, 0x00, 0x00, 0x00,
    0x00, 0x00, 0x00, 0x00, 0x00, 0x00, 0x00, 0x00, 0x00, 0x00, 0x00, 0x00,
    0x00, 0x00, 0x00, 0x00, 0x00, 0x00, 0x00, 0x00, 0x00, 0x00, 0x00, 0x00,
    0x00, 0x00, 0x00, 0x00, 0x00, 0x00, 0x00, 0x00, 0x00, 0x00, 0x00, 0x00,
    0x0c, 0x00, 0x00, 0x00, 0xe7, 0x72, 0xb0, 0x38, 0x02, 0x65, 0xb4, 0x38,
    0x93, 0xa5, 0x75, 0x38, 0x58, 0x08, 0xba, 0x38, 0x8d, 0xdf, 0x5b, 0x38,
    0x62, 0x1e, 0x0d, 0x39, 0x74, 0x46, 0xc9, 0x38, 0xa7, 0x10, 0xc2, 0x38,
    0xa2, 0x82, 0xbd, 0x38, 0xb0, 0x2c, 0xbf, 0x38, 0xfa, 0x77, 0xc2, 0x38,
    0xbd, 0x94, 0xba, 0x38, 0x50, 0x00, 0x00, 0x00, 0x68, 0x65, 0x61, 0x74,
    0x73, 0x68, 0x69, 0x65, 0x6c, 0x64, 0x5f, 0x63, 0x6c, 0x61, 0x73, 0x73,
    0x69, 0x66, 0x69, 0x65, 0x72, 0x5f, 0x31, 0x2f, 0x64, 0x65, 0x6e, 0x73,
    0x65, 0x5f, 0x32, 0x5f, 0x31, 0x2f, 0x52, 0x65, 0x6c, 0x75, 0x3b, 0x68,
    0x65, 0x61, 0x74, 0x73, 0x68, 0x69, 0x65, 0x6c, 0x64, 0x5f, 0x63, 0x6c,
    0x61, 0x73, 0x73, 0x69, 0x66, 0x69, 0x65, 0x72, 0x5f, 0x31, 0x2f, 0x64,
    0x65, 0x6e, 0x73, 0x65, 0x5f, 0x32, 0x5f, 0x31, 0x2f, 0x42, 0x69, 0x61,
    0x73, 0x41, 0x64, 0x64, 0x00, 0x00, 0x00, 0x00, 0x01, 0x00, 0x00, 0x00,
    0x0c, 0x00, 0x00, 0x00, 0x66, 0xff, 0xff, 0xff, 0x00, 0x00, 0x00, 0x01,
    0x14, 0x00, 0x00, 0x00, 0x54, 0x00, 0x00, 0x00, 0x03, 0x00, 0x00, 0x00,
    0x00, 0x00, 0x00, 0x09, 0x74, 0x00, 0x00, 0x00, 0x8c, 0xfe, 0xff, 0xff,
    0x08, 0x00, 0x00, 0x00, 0x28, 0x00, 0x00, 0x00, 0x04, 0x00, 0x00, 0x00,
    0x00, 0x00, 0x00, 0x00, 0x00, 0x00, 0x00, 0x00, 0x00, 0x00, 0x00, 0x00,
    0x00, 0x00, 0x00, 0x00, 0x00, 0x00, 0x00, 0x00, 0x00, 0x00, 0x00, 0x00,
    0x00, 0x00, 0x00, 0x00, 0x00, 0x00, 0x00, 0x00, 0x04, 0x00, 0x00, 0x00,
    0xc6, 0x88, 0x02, 0x3c, 0x25, 0xfc, 0xd8, 0x3b, 0x5f, 0xe6, 0xdd, 0x3b,
    0x8e, 0xcc, 0x0a, 0x3c, 0x27, 0x00, 0x00, 0x00, 0x68, 0x65, 0x61, 0x74,
    0x73, 0x68, 0x69, 0x65, 0x6c, 0x64, 0x5f, 0x63, 0x6c, 0x61, 0x73, 0x73,
    0x69, 0x66, 0x69, 0x65, 0x72, 0x5f, 0x31, 0x2f, 0x6f, 0x75, 0x74, 0x70,
    0x75, 0x74, 0x5f, 0x31, 0x2f, 0x4d, 0x61, 0x74, 0x4d, 0x75, 0x6c, 0x00,
    0x02, 0x00, 0x00, 0x00, 0x04, 0x00, 0x00, 0x00, 0x0c, 0x00, 0x00, 0x00,
    0x00, 0x00, 0x16, 0x00, 0x1c, 0x00, 0x18, 0x00, 0x17, 0x00, 0x10, 0x00,
    0x0c, 0x00, 0x08, 0x00, 0x00, 0x00, 0x00, 0x00, 0x00, 0x00, 0x07, 0x00,
    0x16, 0x00, 0x00, 0x00, 0x00, 0x00, 0x00, 0x01, 0x14, 0x00, 0x00, 0x00,
    0x58, 0x00, 0x00, 0x00, 0x02, 0x00, 0x00, 0x00, 0x00, 0x00, 0x00, 0x02,
    0x7c, 0x00, 0x00, 0x00, 0x3c, 0xff, 0xff, 0xff, 0x08, 0x00, 0x00, 0x00,
    0x2c, 0x00, 0x00, 0x00, 0x04, 0x00, 0x00, 0x00, 0x00, 0x00, 0x00, 0x00,
    0x00, 0x00, 0x00, 0x00, 0x00, 0x00, 0x00, 0x00, 0x00, 0x00, 0x00, 0x00,
    0x00, 0x00, 0x00, 0x00, 0x00, 0x00, 0x00, 0x00, 0x00, 0x00, 0x00, 0x00,
    0x00, 0x00, 0x00, 0x00, 0x00, 0x00, 0x00, 0x00, 0x04, 0x00, 0x00, 0x00,
    0x9e, 0x14, 0x8e, 0x39, 0x98, 0x2d, 0x6c, 0x39, 0x1e, 0x87, 0x71, 0x39,
    0x8c, 0x13, 0x97, 0x39, 0x28, 0x00, 0x00, 0x00, 0x68, 0x65, 0x61, 0x74,
    0x73, 0x68, 0x69, 0x65, 0x6c, 0x64, 0x5f, 0x63, 0x6c, 0x61, 0x73, 0x73,
    0x69, 0x66, 0x69, 0x65, 0x72, 0x5f, 0x31, 0x2f, 0x6f, 0x75, 0x74, 0x70,
    0x75, 0x74, 0x5f, 0x31, 0x2f, 0x42, 0x69, 0x61, 0x73, 0x41, 0x64, 0x64,
    0x00, 0x00, 0x00, 0x00, 0x01, 0x00, 0x00, 0x00, 0x04, 0x00, 0x00, 0x00,
    0x00, 0x00, 0x16, 0x00, 0x20, 0x00, 0x1c, 0x00, 0x1b, 0x00, 0x14, 0x00,
    0x10, 0x00, 0x0c, 0x00, 0x00, 0x00, 0x00, 0x00, 0x08, 0x00, 0x07, 0x00,
    0x16, 0x00, 0x00, 0x00, 0x00, 0x00, 0x00, 0x01, 0x18, 0x00, 0x00, 0x00,
    0x2c, 0x00, 0x00, 0x00, 0x4c, 0x00, 0x00, 0x00, 0x01, 0x00, 0x00, 0x00,
    0x00, 0x00, 0x00, 0x09, 0x60, 0x00, 0x00, 0x00, 0x02, 0x00, 0x00, 0x00,
    0xff, 0xff, 0xff, 0xff, 0x05, 0x00, 0x00, 0x00, 0x0c, 0x00, 0x0c, 0x00,
    0x00, 0x00, 0x00, 0x00, 0x08, 0x00, 0x04, 0x00, 0x0c, 0x00, 0x00, 0x00,
    0x08, 0x00, 0x00, 0x00, 0x14, 0x00, 0x00, 0x00, 0x01, 0x00, 0x00, 0x00,
    0x08, 0x00, 0x00, 0x00, 0x00, 0x00, 0x00, 0x00, 0x00, 0x00, 0x00, 0x00,
    0x01, 0x00, 0x00, 0x00, 0xd8, 0x07, 0xa5, 0x3c, 0x1a, 0x00, 0x00, 0x00,
    0x73, 0x65, 0x72, 0x76, 0x69, 0x6e, 0x67, 0x5f, 0x64, 0x65, 0x66, 0x61,
    0x75, 0x6c, 0x74, 0x5f, 0x66, 0x65, 0x61, 0x74, 0x75, 0x72, 0x65, 0x73,
    0x3a, 0x30, 0x00, 0x00, 0x02, 0x00, 0x00, 0x00, 0x01, 0x00, 0x00, 0x00,
    0x05, 0x00, 0x00, 0x00, 0x02, 0x00, 0x00, 0x00, 0x24, 0x00, 0x00, 0x00,
    0x04, 0x00, 0x00, 0x00, 0xf0, 0xff, 0xff, 0xff, 0x19, 0x00, 0x00, 0x00,
    0x02, 0x00, 0x00, 0x00, 0x00, 0x00, 0x00, 0x19, 0x0c, 0x00, 0x10, 0x00,
    0x0f, 0x00, 0x00, 0x00, 0x08, 0x00, 0x04, 0x00, 0x0c, 0x00, 0x00, 0x00,
    0x09, 0x00, 0x00, 0x00, 0x04, 0x00, 0x00, 0x00, 0x00, 0x00, 0x00, 0x09,
};

const unsigned int g_heatshield_model_len = 3912;

#endif  // HEATSHIELD_MODEL_H
